/*=============================================================================
  @file sns_ai_oem1_algo_eai_model.c

  AI_OEM1 EAI models and parameters

  Generated using AIMET(torch-cpu-1.24.0) and eAI(5.6.0)

  This file contains the eAI ML model and the quantization attributes like 
  bitwith, scale, dtype, offset etc.., corresponding to the i/p and o/p 
  layers of the eAI ML model. 

  Copyright (c) Qualcomm Technologies, Inc. and/or its subsidiaries.
  All Rights Reserved.
  Confidential and Proprietary - Qualcomm Technologies, Inc.
  ============================================================================*/

/*=============================================================================
  Include Files
  ============================================================================*/

#include "sns_ai_oem1_algo_eai_model.h"

/*=============================================================================
  Constant Data
  ============================================================================*/


const sns_ai_oem1_eai_model_quant_info_t sns_ai_oem1_eai_model_input_quantization =
{
  .bitwidth     = 8u,
  .max          = 30.117055892944336f,
  .min          = -30.117055892944336f,
  .offset       = -127,
  .scale        = 0.2371421754360199f,
  .dtype        = "int",
  .is_symmetric = true,
};

const sns_ai_oem1_eai_model_quant_info_t sns_ai_oem1_eai_model_output_quantization =
{
  .bitwidth     = 8u,
  .max          = 1.0080267190933228f,
  .min          = -1.0080267190933228f,
  .offset       = -127,
  .scale        = 0.007937218062579632f,
  .dtype        = "int",
  .is_symmetric = true,
};

const uint8_t sns_ai_oem1_eai_model[SNS_AI_OEM1_EAI_MODEL_MEMSIZE] =
{
	0x65, 0x61, 0x69, 0x32, 0x02, 0x00, 0x02, 0x00, 0x06, 0x00, 0x05, 0x00, 0x01, 0x00, 0x00, 0x00,
	0x20, 0x0f, 0x00, 0x00, 0x80, 0x00, 0x00, 0x00, 0x00, 0x00, 0x00, 0x00, 0x0e, 0x00, 0x00, 0x00,
	0x02, 0x06, 0x01, 0x00, 0x00, 0x00, 0x00, 0x00, 0x0e, 0x00, 0x00, 0x00, 0x0c, 0x00, 0x00, 0x00,
	0x10, 0x01, 0x00, 0x00, 0x00, 0x00, 0x00, 0x00, 0x04, 0x00, 0x00, 0x00, 0x2c, 0x01, 0x00, 0x00,
	0x20, 0x01, 0x00, 0x00, 0x00, 0x00, 0x00, 0x00, 0x01, 0x00, 0x00, 0x00, 0xe0, 0x03, 0x00, 0x00,
	0x50, 0x02, 0x00, 0x00, 0x00, 0x00, 0x00, 0x00, 0x05, 0x00, 0x00, 0x00, 0x70, 0x00, 0x00, 0x00,
	0x30, 0x06, 0x00, 0x00, 0x00, 0x00, 0x00, 0x00, 0x00, 0x00, 0x00, 0x00, 0x10, 0x00, 0x00, 0x00,
	0xa0, 0x06, 0x00, 0x00, 0x00, 0x00, 0x00, 0x00, 0x06, 0x00, 0x00, 0x00, 0x30, 0x00, 0x00, 0x00,
	0xb0, 0x06, 0x00, 0x00, 0x00, 0x00, 0x00, 0x00, 0x02, 0x00, 0x00, 0x00, 0xc0, 0x02, 0x00, 0x00,
	0x00, 0x07, 0x00, 0x00, 0x00, 0x00, 0x00, 0x00, 0x0b, 0x00, 0x00, 0x00, 0x18, 0x01, 0x00, 0x00,
	0xc0, 0x09, 0x00, 0x00, 0x00, 0x00, 0x00, 0x00, 0x0c, 0x00, 0x00, 0x00, 0xc0, 0x01, 0x00, 0x00,
	0x00, 0x0b, 0x00, 0x00, 0x00, 0x00, 0x00, 0x00, 0x0d, 0x00, 0x00, 0x00, 0xfc, 0x00, 0x00, 0x00,
	0xc0, 0x0c, 0x00, 0x00, 0x00, 0x00, 0x00, 0x00, 0x09, 0x00, 0x00, 0x00, 0x80, 0x00, 0x00, 0x00,
	0xc0, 0x0d, 0x00, 0x00, 0x00, 0x00, 0x00, 0x00, 0x03, 0x00, 0x00, 0x00, 0x11, 0x00, 0x00, 0x00,
	0x40, 0x0e, 0x00, 0x00, 0x00, 0x00, 0x00, 0x00, 0x0f, 0x00, 0x00, 0x00, 0x04, 0x00, 0x00, 0x00,
	0x60, 0x0e, 0x00, 0x00, 0x00, 0x00, 0x00, 0x00, 0x0a, 0x00, 0x00, 0x00, 0xb0, 0x00, 0x00, 0x00,
	0x70, 0x0e, 0x00, 0x00, 0x00, 0x00, 0x00, 0x00, 0x00, 0x00, 0x00, 0x00, 0x00, 0x00, 0x00, 0x00,
	0x02, 0x06, 0x00, 0x01, 0x30, 0x00, 0x60, 0x00, 0x30, 0x00, 0x00, 0x01, 0x00, 0x00, 0x00, 0x00,
	0x06, 0x00, 0x00, 0x00, 0x00, 0x00, 0x00, 0x00, 0x3a, 0x00, 0x00, 0x00, 0x28, 0x00, 0x00, 0x00,
	0x00, 0x10, 0x00, 0x00, 0x00, 0x00, 0x00, 0x00, 0x02, 0x00, 0x00, 0x00, 0x00, 0x00, 0x00, 0x00,
	0x00, 0x00, 0x00, 0x00, 0x00, 0x00, 0x00, 0x00, 0x00, 0x00, 0x00, 0x00, 0x0d, 0x00, 0x00, 0x00,
	0x48, 0x00, 0x00, 0x00, 0x28, 0x00, 0x00, 0x00, 0x80, 0x40, 0x00, 0x00, 0x01, 0x00, 0x00, 0x00,
	0x4c, 0x00, 0x00, 0x00, 0x01, 0x00, 0x00, 0x00, 0x00, 0x00, 0x00, 0x00, 0x84, 0x00, 0x00, 0x00,
	0x00, 0x00, 0x00, 0x00, 0x00, 0x00, 0x00, 0x00, 0x48, 0x00, 0x00, 0x00, 0x28, 0x00, 0x00, 0x00,
	0x80, 0x80, 0x00, 0x00, 0x02, 0x00, 0x00, 0x00, 0x4c, 0x00, 0x00, 0x00, 0x01, 0x00, 0x00, 0x00,
	0x48, 0x00, 0x00, 0x00, 0x04, 0x00, 0x00, 0x00, 0x80, 0x00, 0x00, 0x00, 0x4b, 0x56, 0x00, 0x00,
	0x48, 0x00, 0x00, 0x00, 0x28, 0x00, 0x00, 0x00, 0x80, 0x00, 0x01, 0x00, 0x03, 0x00, 0x00, 0x00,
	0x4c, 0x00, 0x00, 0x00, 0x01, 0x00, 0x00, 0x00, 0x90, 0x00, 0x00, 0x00, 0x48, 0x56, 0x00, 0x00,
	0x00, 0x01, 0x00, 0x00, 0x4b, 0x56, 0x00, 0x00, 0x18, 0x00, 0x00, 0x00, 0x50, 0x00, 0x00, 0x00,
	0x00, 0x00, 0x00, 0x00, 0x04, 0x00, 0x01, 0x00, 0x01, 0x00, 0x00, 0x00, 0x00, 0x00, 0x00, 0x00,
	0x01, 0x00, 0x00, 0x00, 0x00, 0x00, 0x00, 0x00, 0x01, 0x00, 0x00, 0x00, 0x00, 0x00, 0x00, 0x00,
	0x00, 0x00, 0x00, 0x00, 0x00, 0x00, 0x00, 0x00, 0x01, 0x00, 0x00, 0x00, 0x00, 0x00, 0x00, 0x00,
	0x01, 0x00, 0x00, 0x00, 0x00, 0x00, 0x00, 0x00, 0x01, 0x00, 0x00, 0x00, 0x00, 0x00, 0x00, 0x00,
	0x01, 0x00, 0x00, 0x00, 0x00, 0x00, 0x00, 0x00, 0x55, 0x00, 0x00, 0x00, 0x34, 0x00, 0x00, 0x00,
	0x00, 0x10, 0x00, 0x00, 0x05, 0x00, 0x00, 0x00, 0x02, 0x00, 0x00, 0x00, 0x00, 0x00, 0x00, 0x00,
	0x40, 0x00, 0x00, 0x00, 0x40, 0x00, 0x00, 0x00, 0x01, 0x00, 0x00, 0x00, 0x00, 0x00, 0x00, 0x00,
	0x00, 0x00, 0x00, 0x00, 0x80, 0x00, 0x00, 0x00, 0x02, 0x00, 0x00, 0x00, 0x00, 0x00, 0x00, 0x00,
	0x0c, 0x00, 0x00, 0x00, 0x20, 0x00, 0x00, 0x00, 0x00, 0x02, 0x00, 0x00, 0xe0, 0x03, 0x00, 0x00,
	0x06, 0x00, 0x00, 0x00, 0x06, 0x00, 0x00, 0x00, 0x00, 0x00, 0x00, 0x00, 0x00, 0x00, 0x00, 0x00,
	0x00, 0x00, 0x00, 0x00, 0x00, 0x00, 0x00, 0x00, 0x01, 0x00, 0x00, 0x00, 0x02, 0x00, 0x00, 0x00,
	0x00, 0x00, 0x00, 0x00, 0x10, 0x32, 0x04, 0x00, 0x10, 0x00, 0x00, 0x00, 0x10, 0x00, 0x00, 0x00,
	0x00, 0x00, 0x00, 0x00, 0x00, 0x00, 0x00, 0x00, 0x00, 0x00, 0x00, 0x00, 0x00, 0x00, 0x00, 0x00,
	0x00, 0x00, 0x00, 0x00, 0x00, 0x00, 0x00, 0x00, 0x50, 0x00, 0x00, 0x00, 0x31, 0x00, 0x04, 0x00,
	0x24, 0x00, 0x00, 0x00, 0x80, 0x41, 0xa9, 0x3a, 0x00, 0x00, 0x80, 0xff, 0x7f, 0x00, 0x00, 0x00,
	0x00, 0x00, 0x00, 0x00, 0x00, 0x00, 0x00, 0x00, 0x01, 0x00, 0x00, 0x00, 0x02, 0x00, 0x00, 0x00,
	0x00, 0x00, 0x00, 0x00, 0x10, 0x32, 0x04, 0x00, 0x10, 0x00, 0x00, 0x00, 0x10, 0x00, 0x00, 0x00,
	0x00, 0x00, 0x00, 0x00, 0x00, 0x00, 0x00, 0x00, 0x00, 0x00, 0x00, 0x00, 0xc0, 0x00, 0x00, 0x00,
	0x00, 0x00, 0x00, 0x00, 0x00, 0x00, 0x00, 0x00, 0x00, 0x01, 0x00, 0x00, 0x31, 0x00, 0x04, 0x00,
	0x25, 0x00, 0x00, 0x00, 0x40, 0xb9, 0x0e, 0x26, 0x00, 0x00, 0x80, 0xff, 0x7f, 0x00, 0x01, 0x00,
	0x00, 0x00, 0x00, 0x00, 0x00, 0x00, 0x00, 0x00, 0x01, 0x00, 0x00, 0x00, 0x02, 0x00, 0x00, 0x00,
	0x00, 0x00, 0x00, 0x00, 0x10, 0x32, 0x04, 0x00, 0x10, 0x00, 0x00, 0x00, 0x10, 0x00, 0x00, 0x00,
	0x00, 0x00, 0x00, 0x00, 0x00, 0x00, 0x00, 0x00, 0x00, 0x00, 0x00, 0x00, 0x00, 0x02, 0x00, 0x00,
	0x00, 0x00, 0x00, 0x00, 0x00, 0x00, 0x00, 0x00, 0x20, 0x00, 0x00, 0x00, 0x31, 0x00, 0x04, 0x00,
	0x25, 0x00, 0x00, 0x00, 0x80, 0xd7, 0x29, 0x27, 0x00, 0x00, 0x80, 0xff, 0x7f, 0x00, 0x02, 0x00,
	0x00, 0x00, 0x00, 0x00, 0x00, 0x00, 0x00, 0x00, 0x01, 0x00, 0x00, 0x00, 0x02, 0x00, 0x00, 0x00,
	0x00, 0x00, 0x00, 0x00, 0x10, 0x32, 0x04, 0x00, 0x01, 0x00, 0x00, 0x00, 0x10, 0x00, 0x00, 0x00,
	0x00, 0x00, 0x00, 0x00, 0x00, 0x00, 0x00, 0x00, 0x00, 0x00, 0x00, 0x00, 0x80, 0x00, 0x00, 0x00,
	0x00, 0x00, 0x00, 0x00, 0x00, 0x00, 0x00, 0x00, 0x40, 0x00, 0x00, 0x00, 0x64, 0x00, 0x04, 0x00,
	0x26, 0x00, 0x00, 0x00, 0x00, 0xe6, 0xa4, 0x37, 0x00, 0x00, 0x00, 0x00, 0x00, 0x00, 0x03, 0x00,
	0x00, 0x00, 0x00, 0x00, 0x00, 0x00, 0x00, 0x00, 0x01, 0x00, 0x00, 0x00, 0x02, 0x00, 0x00, 0x00,
	0x00, 0x00, 0x00, 0x00, 0x10, 0x32, 0x04, 0x00, 0x01, 0x00, 0x00, 0x00, 0x10, 0x00, 0x00, 0x00,
	0x00, 0x00, 0x00, 0x00, 0x00, 0x00, 0x00, 0x00, 0x00, 0x00, 0x00, 0x00, 0xc0, 0x01, 0x00, 0x00,
	0x00, 0x00, 0x00, 0x00, 0x00, 0x00, 0x00, 0x00, 0x40, 0x00, 0x00, 0x00, 0x64, 0x00, 0x04, 0x00,
	0x27, 0x00, 0x00, 0x00, 0xc0, 0x55, 0x7b, 0x33, 0x00, 0x00, 0x00, 0x00, 0x00, 0x00, 0x04, 0x00,
	0x00, 0x00, 0x00, 0x00, 0x00, 0x00, 0x00, 0x00, 0x01, 0x00, 0x00, 0x00, 0x02, 0x00, 0x00, 0x00,
	0x00, 0x00, 0x00, 0x00, 0x10, 0x32, 0x04, 0x00, 0x01, 0x00, 0x00, 0x00, 0x10, 0x00, 0x00, 0x00,
	0x00, 0x00, 0x00, 0x00, 0x00, 0x00, 0x00, 0x00, 0x00, 0x00, 0x00, 0x00, 0x40, 0x02, 0x00, 0x00,
	0x00, 0x00, 0x00, 0x00, 0x00, 0x00, 0x00, 0x00, 0x40, 0x00, 0x00, 0x00, 0x64, 0x00, 0x04, 0x00,
	0x30, 0x00, 0x00, 0x00, 0x00, 0x00, 0x00, 0x40, 0x00, 0x00, 0x00, 0x00, 0x00, 0x00, 0x05, 0x00,
	0x00, 0x00, 0x00, 0x00, 0x00, 0x00, 0x00, 0x00, 0x04, 0x00, 0x00, 0x40, 0x02, 0x00, 0x00, 0x00,
	0x00, 0x00, 0x00, 0x00, 0x10, 0x32, 0x04, 0x00, 0x01, 0x00, 0x00, 0x00, 0x03, 0x00, 0x00, 0x00,
	0x00, 0x00, 0x00, 0x00, 0x00, 0x00, 0x00, 0x00, 0x00, 0x00, 0x00, 0x00, 0x00, 0x00, 0x00, 0x00,
	0x00, 0x00, 0x00, 0x00, 0x00, 0x00, 0x00, 0x00, 0x03, 0x00, 0x00, 0x00, 0x31, 0x80, 0x00, 0x00,
	0x20, 0x00, 0x00, 0x00, 0x80, 0x59, 0xb5, 0x3c, 0x00, 0x00, 0x80, 0xff, 0x7f, 0x00, 0x06, 0x00,
	0x00, 0x00, 0x00, 0x00, 0x00, 0x00, 0x00, 0x00, 0x04, 0x00, 0x00, 0x00, 0x02, 0x00, 0x00, 0x00,
	0x00, 0x00, 0x00, 0x00, 0x10, 0x32, 0x04, 0x00, 0x01, 0x00, 0x00, 0x00, 0x10, 0x00, 0x00, 0x00,
	0x00, 0x00, 0x00, 0x00, 0x00, 0x00, 0x00, 0x00, 0x00, 0x00, 0x00, 0x00, 0x40, 0x00, 0x00, 0x00,
	0x00, 0x00, 0x00, 0x00, 0x00, 0x00, 0x00, 0x00, 0x10, 0x00, 0x00, 0x00, 0x31, 0x00, 0x04, 0x00,
	0x20, 0x00, 0x00, 0x00, 0x80, 0x59, 0xb5, 0x3c, 0x00, 0x00, 0x80, 0xff, 0x7f, 0x00, 0x07, 0x00,
	0x00, 0x00, 0x00, 0x00, 0x00, 0x00, 0x00, 0x00, 0x0c, 0x00, 0x00, 0x00, 0x02, 0x00, 0x00, 0x00,
	0x00, 0x00, 0x00, 0x00, 0x10, 0x32, 0x04, 0x00, 0x01, 0x00, 0x00, 0x00, 0x10, 0x00, 0x00, 0x00,
	0x00, 0x00, 0x00, 0x00, 0x00, 0x00, 0x00, 0x00, 0x00, 0x00, 0x00, 0x00, 0x00, 0x00, 0x00, 0x00,
	0x00, 0x00, 0x00, 0x00, 0x00, 0x00, 0x00, 0x00, 0x10, 0x00, 0x00, 0x00, 0x31, 0x00, 0x04, 0x00,
	0x1f, 0x00, 0x00, 0x00, 0x80, 0x9d, 0x49, 0x2b, 0x00, 0x00, 0x80, 0xff, 0x7f, 0x00, 0x08, 0x00,
	0x00, 0x00, 0x00, 0x00, 0x00, 0x00, 0x00, 0x00, 0x0c, 0x00, 0x00, 0x00, 0x02, 0x00, 0x00, 0x00,
	0x00, 0x00, 0x00, 0x00, 0x10, 0x32, 0x04, 0x00, 0x01, 0x00, 0x00, 0x00, 0x10, 0x00, 0x00, 0x00,
	0x00, 0x00, 0x00, 0x00, 0x00, 0x00, 0x00, 0x00, 0x00, 0x00, 0x00, 0x00, 0x40, 0x00, 0x00, 0x00,
	0x00, 0x00, 0x00, 0x00, 0x00, 0x00, 0x00, 0x00, 0x10, 0x00, 0x00, 0x00, 0x31, 0x00, 0x04, 0x00,
	0x1e, 0x00, 0x00, 0x00, 0x00, 0xaa, 0x38, 0x2d, 0x00, 0x00, 0x80, 0xff, 0x7f, 0x00, 0x09, 0x00,
	0x00, 0x00, 0x00, 0x00, 0x00, 0x00, 0x00, 0x00, 0x04, 0x00, 0x00, 0x00, 0x02, 0x00, 0x00, 0x00,
	0x00, 0x00, 0x00, 0x00, 0x10, 0x32, 0x04, 0x00, 0x01, 0x00, 0x00, 0x00, 0x10, 0x00, 0x00, 0x00,
	0x00, 0x00, 0x00, 0x00, 0x00, 0x00, 0x00, 0x00, 0x00, 0x00, 0x00, 0x00, 0x00, 0x00, 0x00, 0x00,
	0x00, 0x00, 0x00, 0x00, 0x00, 0x00, 0x00, 0x00, 0x10, 0x00, 0x00, 0x00, 0x31, 0x00, 0x04, 0x00,
	0x24, 0x00, 0x00, 0x00, 0xc0, 0xc6, 0x82, 0x20, 0x00, 0x00, 0x80, 0xff, 0x7f, 0x00, 0x0a, 0x00,
	0x00, 0x00, 0x00, 0x00, 0x00, 0x00, 0x00, 0x00, 0x04, 0x00, 0x00, 0x80, 0x02, 0x00, 0x00, 0x00,
	0x00, 0x00, 0x00, 0x00, 0x10, 0x32, 0x04, 0x00, 0x01, 0x00, 0x00, 0x00, 0x01, 0x00, 0x00, 0x00,
	0x00, 0x00, 0x00, 0x00, 0x00, 0x00, 0x00, 0x00, 0x00, 0x00, 0x00, 0x00, 0x40, 0x00, 0x00, 0x00,
	0x00, 0x00, 0x00, 0x00, 0x00, 0x00, 0x00, 0x00, 0x01, 0x00, 0x00, 0x00, 0x31, 0x80, 0x00, 0x00,
	0x24, 0x00, 0x00, 0x00, 0xc0, 0xc6, 0x82, 0x20, 0x00, 0x00, 0x80, 0xff, 0x7f, 0x00, 0x0b, 0x00,
	0x07, 0x00, 0x00, 0x00, 0x20, 0x00, 0x00, 0x00, 0x28, 0x00, 0x00, 0x00, 0x30, 0x00, 0x00, 0x00,
	0x40, 0x00, 0x00, 0x00, 0x50, 0x00, 0x00, 0x00, 0x60, 0x00, 0x00, 0x00, 0x68, 0x00, 0x00, 0x00,
	0x01, 0x00, 0x01, 0x00, 0x06, 0x00, 0x0b, 0x00, 0x01, 0x00, 0x01, 0x00, 0x06, 0x00, 0x07, 0x00,
	0x03, 0x00, 0x01, 0x00, 0x07, 0x00, 0x00, 0x00, 0x03, 0x00, 0x08, 0x00, 0x00, 0x00, 0x00, 0x00,
	0x03, 0x00, 0x01, 0x00, 0x08, 0x00, 0x01, 0x00, 0x04, 0x00, 0x09, 0x00, 0x00, 0x00, 0x00, 0x00,
	0x03, 0x00, 0x01, 0x00, 0x09, 0x00, 0x02, 0x00, 0x05, 0x00, 0x0a, 0x00, 0x00, 0x00, 0x00, 0x00,
	0x01, 0x00, 0x01, 0x00, 0x0a, 0x00, 0x0b, 0x00, 0x00, 0x00, 0x00, 0x00, 0x00, 0x00, 0x00, 0x00,
	0x06, 0x00, 0x00, 0x00, 0x00, 0x00, 0x05, 0x00, 0x01, 0x00, 0x02, 0x00, 0x03, 0x00, 0x04, 0x00,
	0x01, 0x00, 0x00, 0x00, 0x05, 0x00, 0x00, 0x00, 0x06, 0x00, 0x00, 0x00, 0x02, 0x00, 0x00, 0x00,
	0x03, 0x00, 0x00, 0x00, 0x06, 0x00, 0x00, 0x00, 0x05, 0x00, 0x00, 0x00, 0x00, 0x00, 0x00, 0x00,
	0x03, 0x00, 0x00, 0x00, 0x0b, 0x00, 0x00, 0x00, 0x06, 0x00, 0x00, 0x00, 0x00, 0x00, 0x00, 0x00,
	0x00, 0x00, 0x00, 0x00, 0x00, 0x00, 0x00, 0x00, 0x00, 0x00, 0x00, 0x00, 0x00, 0x00, 0x00, 0x00,
	0x00, 0x00, 0x00, 0x00, 0x00, 0x00, 0x00, 0x00, 0x00, 0x00, 0x00, 0x00, 0x00, 0x00, 0x00, 0x00,
	0x55, 0x07, 0x07, 0x07, 0x07, 0x1b, 0xe2, 0xb0, 0xfe, 0xe0, 0x36, 0x08, 0xfd, 0x7e, 0xf6, 0x10,
	0x31, 0x55, 0x07, 0x07, 0x07, 0x07, 0xdd, 0xf4, 0xa4, 0x2d, 0x29, 0xc3, 0x25, 0x11, 0x95, 0xff,
	0x02, 0x6e, 0x00, 0x00, 0x55, 0x07, 0x07, 0x07, 0x07, 0x1f, 0xeb, 0x6b, 0xec, 0xf8, 0x5e, 0xf1,
	0x25, 0x67, 0x21, 0xe5, 0xae, 0x55, 0x07, 0x06, 0x07, 0x07, 0xe3, 0x04, 0x9c, 0xde, 0xad, 0x1b,
	0xf9, 0x62, 0xe8, 0xf4, 0x5d, 0x00, 0x00, 0x00, 0x00, 0x00, 0x00, 0x00, 0x00, 0x00, 0x00, 0x00,
	0x00, 0x00, 0x00, 0x00, 0x00, 0x00, 0x00, 0x00, 0x00, 0x00, 0x00, 0x00, 0x00, 0x00, 0x00, 0x00,
	0x00, 0x00, 0x00, 0x00, 0x00, 0x00, 0x00, 0x00, 0x00, 0x00, 0x00, 0x00, 0x00, 0x00, 0x00, 0x00,
	0x00, 0x00, 0x00, 0x00, 0x00, 0x00, 0x00, 0x00, 0x00, 0x00, 0x00, 0x00, 0x00, 0x00, 0x00, 0x00,
	0xa9, 0x00, 0x00, 0x00, 0x8f, 0xff, 0xff, 0xff, 0xb9, 0x00, 0x00, 0x00, 0xf3, 0xff, 0xff, 0xff,
	0xc0, 0x00, 0x00, 0x00, 0xbb, 0x00, 0x00, 0x00, 0x0d, 0x00, 0x00, 0x00, 0xd3, 0x00, 0x00, 0x00,
	0x9f, 0xff, 0xff, 0xff, 0x90, 0x00, 0x00, 0x00, 0xaf, 0xff, 0xff, 0xff, 0xda, 0xff, 0xff, 0xff,
	0x61, 0x00, 0x00, 0x00, 0xc0, 0xff, 0xff, 0xff, 0x1e, 0x00, 0x00, 0x00, 0x1c, 0x00, 0x00, 0x00,
	0x4c, 0xe6, 0xaa, 0xda, 0x0e, 0x25, 0x1b, 0xf5, 0xf9, 0xc8, 0xe1, 0xf3, 0x4d, 0x58, 0xc6, 0x09,
	0xd6, 0x08, 0x5f, 0x01, 0xf8, 0xf9, 0x14, 0x6d, 0x5a, 0x2b, 0x11, 0xdb, 0xce, 0x27, 0x46, 0x7c,
	0x14, 0x1f, 0xbb, 0x13, 0xf5, 0x11, 0xfe, 0xeb, 0xf7, 0xe5, 0xed, 0x07, 0x3d, 0xfa, 0xf6, 0xe3,
	0x28, 0xc8, 0xca, 0xdf, 0x09, 0xcc, 0xfb, 0xca, 0xe5, 0x07, 0xf1, 0x0d, 0xe9, 0xcc, 0x0f, 0x20,
	0x16, 0x11, 0xa6, 0x16, 0x4a, 0x49, 0x4c, 0xce, 0xe7, 0xd5, 0xee, 0x02, 0x3e, 0x36, 0xba, 0xce,
	0x13, 0x12, 0x02, 0x1e, 0xcc, 0xca, 0xd1, 0xea, 0xee, 0x0b, 0xf1, 0xe4, 0xde, 0x06, 0xcd, 0x12,
	0x23, 0x10, 0x8d, 0x02, 0x58, 0x16, 0x3e, 0xb9, 0xac, 0x00, 0xf4, 0x3a, 0x6b, 0x52, 0x0f, 0xaf,
	0xce, 0x2d, 0x4a, 0x02, 0xf3, 0x27, 0xca, 0x5b, 0x1b, 0x20, 0x3b, 0x0f, 0xe3, 0xf6, 0x2f, 0x5a,
	0xf8, 0xe5, 0x48, 0x0e, 0xe2, 0x14, 0xd9, 0x55, 0x1f, 0xf2, 0xfa, 0xeb, 0x06, 0x02, 0x22, 0x4b,
	0x2d, 0x17, 0x69, 0xea, 0xee, 0x09, 0xd7, 0x58, 0x0f, 0x67, 0x26, 0xdb, 0xfb, 0x01, 0x30, 0x4d,
	0x28, 0xcd, 0x92, 0x19, 0x34, 0x2e, 0x0f, 0xa5, 0xe4, 0xe3, 0x01, 0x1c, 0x45, 0x4a, 0xe6, 0xd7,
	0xcd, 0xfa, 0xc5, 0x12, 0xfc, 0xf5, 0xd3, 0x1b, 0xfb, 0x1c, 0xfc, 0x2c, 0xdf, 0xcf, 0x18, 0x01,
	0xd1, 0x17, 0x61, 0x47, 0xe1, 0x29, 0xdc, 0x43, 0xff, 0x18, 0x48, 0x10, 0xb9, 0x0f, 0x2c, 0x2e,
	0x18, 0x16, 0x23, 0x19, 0xcb, 0x1b, 0xf5, 0x4c, 0x24, 0x60, 0x0d, 0xb7, 0xf1, 0xf6, 0x2e, 0x4e,
	0xc1, 0x13, 0x72, 0xf7, 0xe6, 0x14, 0x14, 0x7f, 0x3a, 0x5e, 0xf7, 0xea, 0xf8, 0xe8, 0x23, 0x2e,
	0x34, 0xf2, 0xd8, 0xfd, 0x31, 0x1a, 0x56, 0x9b, 0xd5, 0xe4, 0xf5, 0xeb, 0x70, 0x05, 0x12, 0xc6,
	0x03, 0x01, 0x00, 0x00, 0xc2, 0xff, 0xff, 0xff, 0xf3, 0x00, 0x00, 0x00, 0xe3, 0xff, 0xff, 0xff,
	0x34, 0x00, 0x00, 0x00, 0xf0, 0xff, 0xff, 0xff, 0xde, 0x00, 0x00, 0x00, 0x2e, 0x00, 0x00, 0x00,
	0xf9, 0xff, 0xff, 0xff, 0xdc, 0xff, 0xff, 0xff, 0xf4, 0x00, 0x00, 0x00, 0x6f, 0xff, 0xff, 0xff,
	0xca, 0xff, 0xff, 0xff, 0x39, 0x00, 0x00, 0x00, 0xa0, 0xff, 0xff, 0xff, 0x06, 0x01, 0x00, 0x00,
	0x03, 0x81, 0x5c, 0x83, 0x05, 0x98, 0xe4, 0xb8, 0x51, 0x00, 0x03, 0x35, 0x4e, 0x9f, 0xfb, 0x48,
	0x65, 0x77, 0xaf, 0x00, 0x00, 0x00, 0x00, 0x00, 0x00, 0x00, 0x00, 0x00, 0x00, 0x00, 0x00, 0x00,
	0x00, 0x00, 0x00, 0x00, 0x00, 0x00, 0x00, 0x00, 0x00, 0x00, 0x00, 0x00, 0x00, 0x00, 0x00, 0x00,
	0x00, 0x00, 0x00, 0x00, 0x00, 0x00, 0x00, 0x00, 0x00, 0x00, 0x00, 0x00, 0x00, 0x00, 0x00, 0x00,
	0x58, 0xe0, 0xfe, 0xff, 0x00, 0x00, 0x00, 0x00, 0x00, 0x00, 0x00, 0x00, 0x00, 0x00, 0x00, 0x00,
	0x00, 0x00, 0x00, 0x00, 0x00, 0x00, 0x00, 0x00, 0x00, 0x00, 0x00, 0x00, 0x00, 0x00, 0x00, 0x00,
	0x00, 0x00, 0x00, 0x00, 0x00, 0x00, 0x00, 0x00, 0x00, 0x00, 0x00, 0x00, 0x00, 0x00, 0x00, 0x00,
	0x00, 0x00, 0x00, 0x00, 0x00, 0x00, 0x00, 0x00, 0x00, 0x00, 0x00, 0x00, 0x00, 0x00, 0x00, 0x00,
	0x00, 0x00, 0x00, 0x00, 0x00, 0x00, 0x00, 0x00, 0x00, 0x00, 0x00, 0x00, 0x00, 0x00, 0x00, 0x00,
	0x00, 0x00, 0x00, 0x00, 0x00, 0x00, 0x00, 0x00, 0x00, 0x00, 0x00, 0x00, 0x00, 0x00, 0x00, 0x00,
	0x00, 0x00, 0x00, 0x00, 0x00, 0x00, 0x00, 0x00, 0x00, 0x00, 0x00, 0x00, 0x00, 0x00, 0x00, 0x00,
	0x00, 0x00, 0x00, 0x00, 0x00, 0x00, 0x00, 0x00, 0x00, 0x00, 0x00, 0x00, 0x00, 0x00, 0x00, 0x00,
	0x00, 0x00, 0x05, 0x18, 0x48, 0x00, 0x00, 0x00, 0x00, 0x00, 0x00, 0x00, 0x00, 0x10, 0x10, 0x00,
	0x01, 0x00, 0x00, 0x00, 0x00, 0x00, 0x00, 0x00, 0x01, 0x00, 0x00, 0x00, 0x02, 0x00, 0x01, 0x00,
	0x02, 0x00, 0x00, 0x00, 0x01, 0x00, 0x00, 0x00, 0x01, 0x00, 0x00, 0x00, 0x10, 0x00, 0x00, 0x00,
	0x10, 0x00, 0x00, 0x00, 0x01, 0x00, 0x00, 0x00, 0x01, 0x00, 0x00, 0x00, 0x00, 0x00, 0x01, 0x00,
	0x10, 0x00, 0x00, 0x00, 0x00, 0x00, 0x00, 0x00, 0x00, 0x00, 0x05, 0x1b, 0x48, 0x00, 0x00, 0x00,
	0x00, 0x00, 0x00, 0x00, 0x01, 0x10, 0x20, 0x00, 0x01, 0x00, 0x00, 0x00, 0x00, 0x00, 0x00, 0x00,
	0x01, 0x00, 0x00, 0x00, 0x02, 0x00, 0x01, 0x00, 0x02, 0x00, 0x00, 0x00, 0x01, 0x00, 0x00, 0x00,
	0x01, 0x00, 0x00, 0x00, 0x10, 0x00, 0x00, 0x00, 0x10, 0x00, 0x00, 0x00, 0x01, 0x00, 0x00, 0x00,
	0x01, 0x00, 0x00, 0x00, 0x00, 0x00, 0x01, 0x00, 0x10, 0x00, 0x00, 0x00, 0x00, 0x00, 0x00, 0x00,
	0x00, 0x00, 0x05, 0x03, 0x48, 0x00, 0x00, 0x00, 0x00, 0x00, 0x00, 0x00, 0x01, 0x00, 0x30, 0x00,
	0x01, 0x00, 0x00, 0x00, 0x00, 0x00, 0x00, 0x00, 0x01, 0x00, 0x00, 0x00, 0x02, 0x00, 0x01, 0x00,
	0x02, 0x00, 0x00, 0x00, 0x01, 0x00, 0x00, 0x00, 0x01, 0x00, 0x00, 0x00, 0x10, 0x00, 0x00, 0x00,
	0x10, 0x00, 0x00, 0x00, 0x01, 0x00, 0x00, 0x00, 0x01, 0x00, 0x00, 0x00, 0x00, 0x00, 0x01, 0x00,
	0x10, 0x00, 0x00, 0x00, 0x00, 0x00, 0x00, 0x00, 0x00, 0x00, 0x00, 0x00, 0x00, 0x00, 0x00, 0x00,
	0x00, 0x00, 0x00, 0x00, 0x00, 0x00, 0x00, 0x00, 0x00, 0x00, 0x00, 0x00, 0x00, 0x00, 0x00, 0x00,
	0x00, 0x00, 0x00, 0x00, 0x00, 0x00, 0x00, 0x00, 0x00, 0x00, 0x00, 0x00, 0x00, 0x00, 0x00, 0x00,
	0x00, 0x00, 0x00, 0x00, 0x00, 0x00, 0x00, 0x00, 0x00, 0x00, 0x00, 0x00, 0x00, 0x00, 0x00, 0x00,
	0x00, 0x00, 0x00, 0x00, 0x00, 0x00, 0x00, 0x00, 0x00, 0x00, 0x00, 0x00, 0x00, 0x00, 0x00, 0x00,
	0x00, 0x00, 0x00, 0x00, 0x00, 0x00, 0x00, 0x00, 0x00, 0x00, 0x00, 0x00, 0x00, 0x00, 0x00, 0x00,
	0x00, 0x00, 0x00, 0x00, 0x00, 0x00, 0x00, 0x00, 0x00, 0x00, 0x00, 0x00, 0x00, 0x00, 0x00, 0x00,
	0x03, 0x00, 0x00, 0x80, 0x00, 0x00, 0x82, 0x00, 0x01, 0x20, 0x00, 0x02, 0x00, 0x00, 0x00, 0x00,
	0x00, 0x00, 0x00, 0x10, 0x00, 0x00, 0x00, 0x00, 0x00, 0x00, 0x00, 0x00, 0x2a, 0xdb, 0x0e, 0x00,
	0x00, 0x00, 0x00, 0x00, 0x00, 0x00, 0x00, 0x00, 0x00, 0x00, 0x00, 0x00, 0x00, 0x00, 0x00, 0x00,
	0x00, 0x00, 0x00, 0x47, 0x00, 0x00, 0x00, 0x00, 0x00, 0x00, 0x00, 0x00, 0x00, 0x00, 0x00, 0x00,
	0x00, 0x00, 0x00, 0x00, 0xff, 0xff, 0xff, 0x7f, 0x00, 0x00, 0x45, 0x52, 0x00, 0x00, 0x00, 0x00,
	0x00, 0x00, 0x00, 0x00, 0x00, 0x00, 0xff, 0xff, 0xff, 0x7f, 0x00, 0x00, 0x00, 0x02, 0x00, 0x08,
	0x00, 0x00, 0x00, 0x00, 0x00, 0x00, 0x00, 0x00, 0x80, 0x00, 0x00, 0x00, 0x00, 0x00, 0x00, 0x00,
	0x00, 0x00, 0x00, 0x00, 0x00, 0x00, 0x00, 0x00, 0x00, 0x00, 0x00, 0x00, 0x00, 0x00, 0x00, 0x00,
	0x03, 0x00, 0x00, 0x00, 0x00, 0x00, 0xc2, 0x00, 0x01, 0x20, 0x00, 0x02, 0x00, 0x00, 0x00, 0x00,
	0x00, 0x00, 0x00, 0x10, 0x00, 0x00, 0x00, 0x00, 0x00, 0x00, 0x00, 0x00, 0x2a, 0xdb, 0x0e, 0x00,
	0x00, 0x00, 0x00, 0x00, 0x00, 0x00, 0x00, 0x00, 0x00, 0x00, 0x00, 0x00, 0x00, 0x00, 0x00, 0x00,
	0x00, 0x00, 0x00, 0x00, 0x01, 0x00, 0x00, 0x00, 0x00, 0x00, 0x00, 0x00, 0x00, 0x00, 0x00, 0x00,
	0x00, 0x00, 0x00, 0x00, 0xff, 0xff, 0xff, 0x7f, 0x00, 0x00, 0x37, 0x12, 0x00, 0x00, 0x00, 0x00,
	0x00, 0x00, 0x00, 0x00, 0x00, 0x00, 0xff, 0xff, 0xff, 0x7f, 0x00, 0x00, 0x00, 0x02, 0x00, 0x08,
	0x00, 0x00, 0x00, 0x00, 0x00, 0x00, 0x00, 0x00, 0x80, 0x00, 0x00, 0x00, 0x00, 0x00, 0x00, 0x00,
	0x00, 0x00, 0x00, 0x00, 0x00, 0x00, 0x00, 0x00, 0x00, 0x00, 0x00, 0x00, 0x00, 0x00, 0x00, 0x00,
	0x03, 0x00, 0x00, 0x80, 0x00, 0x00, 0x89, 0x32, 0x01, 0x20, 0x00, 0x02, 0x00, 0x00, 0x00, 0x00,
	0x00, 0x00, 0x00, 0x10, 0x00, 0x00, 0x00, 0x00, 0x76, 0x03, 0x00, 0xb0, 0x38, 0xdb, 0x0e, 0x00,
	0x00, 0x00, 0x00, 0x00, 0x00, 0x00, 0x00, 0x00, 0x00, 0x00, 0x00, 0x00, 0x00, 0x00, 0x00, 0x00,
	0x00, 0x00, 0x00, 0x18, 0x00, 0x00, 0xfd, 0x7d, 0x00, 0x00, 0x00, 0x00, 0x00, 0x00, 0x00, 0x00,
	0x00, 0x00, 0x00, 0x00, 0x00, 0x00, 0x00, 0x00, 0x00, 0x00, 0x00, 0x00, 0x00, 0x00, 0x00, 0x00,
	0x00, 0x00, 0x00, 0x00, 0x00, 0x00, 0x00, 0x00, 0x00, 0x00, 0x00, 0x00, 0x00, 0x02, 0x00, 0x08,
	0x00, 0x00, 0x00, 0x00, 0x00, 0x00, 0x00, 0x00, 0x80, 0x00, 0x00, 0x00, 0x00, 0x00, 0x00, 0x00,
	0x00, 0x00, 0x00, 0x00, 0x00, 0x00, 0x00, 0x00, 0x00, 0x00, 0x00, 0x00, 0x00, 0x00, 0x00, 0x00,
	0x00, 0x00, 0x00, 0x00, 0x00, 0x00, 0x00, 0x00, 0x00, 0x00, 0x00, 0x00, 0x00, 0x00, 0x00, 0x00,
	0x00, 0x00, 0x00, 0x00, 0x00, 0x00, 0x00, 0x00, 0x00, 0x00, 0x00, 0x00, 0x00, 0x00, 0x00, 0x00,
	0x00, 0x00, 0x00, 0x00, 0x00, 0x00, 0x00, 0x00, 0x00, 0x00, 0x00, 0x00, 0x00, 0x00, 0x00, 0x00,
	0x00, 0x00, 0x00, 0x00, 0x00, 0x00, 0x00, 0x00, 0x00, 0x00, 0x00, 0x00, 0x00, 0x00, 0x00, 0x00,
	0x03, 0x0a, 0x1e, 0x00, 0x10, 0x00, 0x00, 0x00, 0x1c, 0x00, 0x00, 0x00, 0x44, 0x00, 0x00, 0x00,
	0x00, 0x01, 0x00, 0x00, 0x00, 0x02, 0x00, 0x00, 0x00, 0x04, 0x00, 0x00, 0xcd, 0xcc, 0xcc, 0x3d,
	0xcd, 0xcc, 0x4c, 0x3e, 0x9a, 0x99, 0x99, 0x3e, 0xcd, 0xcc, 0xcc, 0x3e, 0x00, 0x00, 0x00, 0x3f,
	0x9a, 0x99, 0x19, 0x3f, 0x33, 0x33, 0x33, 0x3f, 0xcd, 0xcc, 0x4c, 0x3f, 0x66, 0x66, 0x66, 0x3f,
	0x00, 0x00, 0x80, 0x3f, 0x00, 0xc0, 0xaf, 0x44, 0x00, 0xc0, 0xaf, 0x44, 0x00, 0xc0, 0xaf, 0x44,
	0x00, 0x20, 0x9d, 0x44, 0x00, 0x20, 0x9d, 0x44, 0x00, 0x20, 0x9d, 0x44, 0x00, 0x20, 0x98, 0x44,
	0x00, 0x20, 0x98, 0x44, 0x00, 0x20, 0x98, 0x44, 0x00, 0x60, 0x96, 0x44, 0x00, 0x60, 0x96, 0x44,
	0x00, 0x60, 0x96, 0x44, 0x00, 0x60, 0x95, 0x44, 0x00, 0x60, 0x95, 0x44, 0x00, 0x60, 0x95, 0x44,
	0x00, 0xe0, 0x94, 0x44, 0x00, 0xe0, 0x94, 0x44, 0x00, 0xe0, 0x94, 0x44, 0x00, 0xa0, 0x94, 0x44,
	0x00, 0xa0, 0x94, 0x44, 0x00, 0xa0, 0x94, 0x44, 0x00, 0xa0, 0x94, 0x44, 0x00, 0xa0, 0x94, 0x44,
	0x00, 0xa0, 0x94, 0x44, 0x00, 0x60, 0x94, 0x44, 0x00, 0x60, 0x94, 0x44, 0x00, 0x60, 0x94, 0x44,
	0x00, 0x60, 0x94, 0x44, 0x00, 0x60, 0x94, 0x44, 0x00, 0x60, 0x94, 0x44, 0x00, 0x00, 0x00, 0x00,
	0x00, 0x00, 0x00, 0x00, 0x00, 0x00, 0x00, 0x00, 0x00, 0x00, 0x00, 0x00, 0x00, 0x00, 0x00, 0x00,
	0x00, 0x00, 0x00, 0x00, 0x00, 0x00, 0x00, 0x00, 0x00, 0x00, 0x00, 0x00, 0x00, 0x00, 0x00, 0x00,
	0x00, 0x00, 0x00, 0x00, 0x00, 0x00, 0x00, 0x00, 0x00, 0x00, 0x00, 0x00, 0x00, 0x00, 0x00, 0x00,
	0x00, 0x00, 0x00, 0x00, 0x00, 0x00, 0x00, 0x00, 0x00, 0x00, 0x00, 0x00, 0x00, 0x00, 0x00, 0x00,
	0x00, 0x00, 0x00, 0x00, 0x00, 0x00, 0x00, 0x00, 0x00, 0x00, 0x00, 0x00, 0x00, 0x00, 0x00, 0x00,
	0x00, 0x00, 0x00, 0x00, 0x00, 0x00, 0x00, 0x00, 0x00, 0x00, 0x00, 0x00, 0x00, 0x00, 0x00, 0x00,
	0x00, 0x00, 0x00, 0x00, 0x00, 0x00, 0x00, 0x00, 0x00, 0x00, 0x00, 0x00, 0x00, 0x00, 0x00, 0x00,
	0x00, 0x00, 0x00, 0x00, 0x00, 0x00, 0x00, 0x00, 0x00, 0x00, 0x00, 0x00, 0x00, 0x00, 0x00, 0x00,
	0x00, 0x00, 0x00, 0x00, 0x00, 0x00, 0x00, 0x00, 0x00, 0x00, 0x00, 0x00, 0x00, 0x00, 0x00, 0x00,
	0x00, 0x00, 0x00, 0x00, 0x00, 0x00, 0x00, 0x00, 0x00, 0x00, 0x00, 0x00, 0x00, 0x00, 0x00, 0x00,
	0x00, 0x00, 0x00, 0x00, 0x00, 0x00, 0x00, 0x00, 0x00, 0x00, 0x00, 0x00, 0x00, 0x00, 0x00, 0x00,
	0x00, 0x00, 0x00, 0x00, 0x00, 0x00, 0x00, 0x00, 0x00, 0x00, 0x00, 0x00, 0x00, 0x00, 0x00, 0x00,
	0x01, 0x00, 0x00, 0x00, 0x01, 0x00, 0x00, 0x00, 0x10, 0x00, 0x00, 0x00, 0x00, 0x00, 0x00, 0x00,
	0x00, 0x00, 0x00, 0x00, 0x00, 0x00, 0x00, 0x00, 0x00, 0x00, 0x00, 0x00, 0x00, 0x00, 0x00, 0x00,
	0x00, 0x00, 0x00, 0x00, 0x00, 0x00, 0x00, 0x00, 0x00, 0x00, 0x00, 0x00, 0x00, 0x00, 0x00, 0x00,
	0x00, 0x00, 0x8f, 0xa9, 0x99, 0x2d, 0x0e, 0x00, 0x0e, 0x00, 0x00, 0x00, 0x2a, 0x01, 0xf8, 0x04,
	0xc2, 0x08, 0x4c, 0x2c, 0x04, 0x00, 0x00, 0x00, 0x50, 0x02, 0xa8, 0x0b, 0xfb, 0xeb, 0xc9, 0x80,
	0x01, 0x00, 0x00, 0x00, 0x31, 0x06, 0x88, 0x20, 0x99, 0x0b, 0xf9, 0x8a, 0x05, 0x00, 0x00, 0x00,
	0xa5, 0x06, 0x88, 0x1b, 0x5e, 0x02, 0x1b, 0x61, 0x00, 0x00, 0x00, 0x00, 0xb0, 0x06, 0xe0, 0x1a,
	0x15, 0x00, 0x5d, 0x00, 0x06, 0x00, 0x00, 0x00, 0xe6, 0x06, 0x10, 0x1c, 0x30, 0x00, 0x54, 0x02,
	0x02, 0x00, 0x00, 0x00, 0xc2, 0x09, 0x90, 0x2c, 0x2a, 0x2d, 0x3f, 0x0f, 0x0b, 0x00, 0x00, 0x00,
	0xe3, 0x0a, 0xe8, 0x2d, 0xfd, 0x57, 0xb2, 0xe2, 0x0c, 0x00, 0x00, 0x00, 0xcc, 0x0c, 0xe0, 0x36,
	0x03, 0x70, 0x11, 0x95, 0x0d, 0x00, 0x00, 0x00, 0xc9, 0x0d, 0x50, 0x39, 0x83, 0x70, 0x81, 0x81,
	0x09, 0x00, 0x00, 0x00, 0x49, 0x0e, 0x48, 0x3a, 0x00, 0x00, 0x00, 0x00, 0x03, 0x00, 0x00, 0x00,
	0x54, 0x0e, 0x7e, 0x39, 0x12, 0x00, 0x60, 0x00, 0x0f, 0x00, 0x00, 0x00, 0x73, 0x0e, 0x10, 0x3a,
	0x00, 0x00, 0x00, 0x00, 0x0a, 0x00, 0x00, 0x00, 0x2a, 0x0f, 0x30, 0x3e, 0x00, 0x00, 0x00, 0x00,
};
